<unk>	0
<s>	0
</s>	0
▁t	-0
he	-1
▁a	-2
in	-3
▁s	-4
▁w	-5
▁the	-6
▁o	-7
re	-8
ha	-9
nd	-10
ou	-11
▁m	-12
er	-13
▁b	-14
▁i	-15
▁f	-16
▁c	-17
ed	-18
▁and	-19
en	-20
▁to	-21
on	-22
▁of	-23
ing	-24
hi	-25
▁he	-26
▁d	-27
▁l	-28
ll	-29
▁n	-30
ar	-31
or	-32
it	-33
▁in	-34
as	-35
▁ha	-36
es	-37
▁p	-38
hat	-39
an	-40
▁be	-41
▁e	-42
om	-43
at	-44
▁hi	-45
▁“	-46
le	-47
▁g	-48
▁no	-49
st	-50
▁y	-51
▁that	-52
ld	-53
▁it	-54
ly	-55
▁was	-56
ve	-57
gh	-58
ver	-59
ow	-60
ut	-61
▁you	-62
ce	-63
se	-64
et	-65
id	-66
ch	-67
ent	-68
▁her	-69
▁on	-70
▁h	-71
▁re	-72
▁as	-73
▁his	-74
▁u	-75
ay	-76
ion	-77
▁wit	-78
▁she	-79
▁for	-80
▁th	-81
▁not	-82
▁with	-83
▁we	-84
li	-85
▁had	-86
ir	-87
ght	-88
ri	-89
ould	-90
ro	-91
her	-92
ur	-93
▁at	-94
is	-95
▁sa	-96
▁st	-97
ad	-98
▁an	-99
al	-100
▁is	-101
▁whi	-102
ct	-103
oo	-104
▁”	-105
▁k	-106
▁so	-107
▁but	-108
▁have	-109
▁all	-110
ic	-111
me	-112
▁my	-113
▁se	-114
▁su	-115
▁him	-116
ter	-117
ab	-118
ain	-119
ill	-120
▁fr	-121
▁me	-122
and	-123
lf	-124
▁mo	-125
red	-126
▁which	-127
ess	-128
▁said	-129
very	-130
pe	-131
▁they	-132
ome	-133
▁from	-134
▁whe	-135
▁li	-136
ke	-137
ck	-138
▁ne	-139
ge	-140
qu	-141
▁r	-142
our	-143
▁con	-144
▁by	-145
th	-146
▁were	-147
▁do	-148
ther	-149
▁up	-150
▁there	-151
▁de	-152
ho	-153
▁kn	-154
his	-155
,”	-156
all	-157
ard	-158
ust	-159
ol	-160
▁al	-161
▁this	-162
▁sh	-163
▁would	-164
pp	-165
▁j	-166
▁man	-167
▁or	-168
one	-169
ra	-170
▁them	-171
▁fe	-172
ong	-173
▁ex	-174
ation	-175
▁been	-176
est	-177
ss	-178
ind	-179
▁when	-180
ough	-181
il	-182
▁v	-183
itt	-184
▁their	-185
▁what	-186
▁very	-187
am	-188
han	-189
ul	-190
▁un	-191
▁who	-192
▁could	-193
▁see	-194
▁your	-195
▁mr	-196
te	-197
ight	-198
▁one	-199
ound	-200
un	-201
▁ca	-202
▁le	-203
ous	-204
?”	-205
ers	-206
▁know	-207
ood	-208
self	-209
fe	-210
▁com	-211
ast	-212
▁ag	-213
us	-214
ist	-215
mp	-216
ked	-217
ore	-218
eth	-219
▁am	-220
out	-221
▁ab	-222
▁qu	-223
▁will	-224
ot	-225
▁are	-226
ven	-227
ant	-228
▁then	-229
▁any	-230
▁af	-231
▁out	-232
▁_	-233
ure	-234
we	-235
own	-236
▁more	-237
▁ma	-238
ate	-239
able	-240
▁int	-241
▁ro	-242
ord	-243
ittle	-244
art	-245
▁little	-246
▁some	-247
ment	-248
▁if	-249
way	-250
▁than	-251
▁over	-252
▁how	-253
▁po	-254
liz	-255
▁lo	-256
ather	-257
▁fi	-258
▁ti	-259
king	-260
hed	-261
▁eliz	-262
▁again	-263
▁can	-264
fore	-265
lo	-266
urn	-267
ved	-268
ings	-269
ry	-270
abeth	-271
▁elizabeth	-272
ort	-273
▁now	-274
la	-275
▁upon	-276
▁sp	-277
ance	-278
reat	-279
▁should	-280
▁en	-281
▁go	-282
▁loo	-283
ought	-284
▁ad	-285
▁such	-286
mes	-287
▁pro	-288
ep	-289
▁sha	-290
▁other	-291
▁tw	-292
▁pre	-293
▁fa	-294
▁cha	-295
cy	-296
▁has	-297
ine	-298
▁co	-299
wn	-300
▁into	-301
ence	-302
orn	-303
ity	-304
▁mu	-305
▁did	-306
ide	-307
ink	-308
▁came	-309
▁down	-310
▁long	-311
▁dar	-312
▁only	-313
▁must	-314
▁before	-315
if	-316
▁time	-317
the	-318
▁much	-319
ive	-320
▁mar	-321
--	-322
de	-323
age	-324
ass	-325
ak	-326
cc	-327
▁dis	-328
au	-329
▁too	-330
▁us	-331
▁even	-332
mb	-333
nder	-334
▁elf	-335
▁mis	-336
med	-337
ag	-338
▁day	-339
land	-340
ady	-341
▁after	-342
▁te	-343
!”	-344
▁every	-345
ction	-346
ite	-347
▁never	-348
ack	-349
ving	-350
▁ho	-351
ade	-352
▁may	-353
hing	-354
lice	-355
▁like	-356
led	-357
ally	-358
▁our	-359
nt	-360
ried	-361
▁think	-362
ose	-363
▁br	-364
▁"	-365
el	-366
▁say	-367
ble	-368
▁ear	-369
▁hol	-370
ily	-371
▁way	-372
▁per	-373
▁might	-374
ress	-375
▁thought	-376
▁holmes	-377
▁about	-378
ward	-379
▁though	-380
▁went	-381
▁miss	-382
▁great	-383
ice	-384
ouse	-385
▁come	-386
▁thr	-387
ted	-388
eld	-389
ies	-390
▁away	-391
▁well	-392
▁comp	-393
▁part	-394
▁imp	-395
▁its	-396
▁sc	-397
ars	-398
▁ob	-399
▁alice	-400
ig	-401
ness	-402
▁elfland	-403
ew	-404
ever	-405
ree	-406
ps	-407
▁off	-408
▁darcy	-409
▁hand	-410
ert	-411
▁ar	-412
▁good	-413
▁bo	-414
▁soon	-415
yes	-416
ng	-417
▁tr	-418
ley	-419
▁saw	-420
▁back	-421
▁gr	-422
▁nothing	-423
▁ben	-424
ish	-425
you	-426
▁let	-427
▁str	-428
▁shall	-429
rie	-430
▁made	-431
ft	-432
▁two	-433
▁op	-434
ane	-435
▁turn	-436
ue	-437
light	-438
▁ri	-439
▁spe	-440
▁wor	-441
▁sm	-442
▁bet	-443
▁pr	-444
▁fir	-445
▁sist	-446
▁where	-447
net	-448
are	-449
▁own	-450
▁rem	-451
ened	-452
pect	-453
▁herself	-454
ect	-455
▁beg	-456
▁bennet	-457
▁gl	-458
ious	-459
▁pass	-460
▁first	-461
veric	-462
▁field	-463
▁alveric	-464
ful	-465
um	-466
▁last	-467
ves	-468
▁rep	-469
▁happ	-470
▁just	-471
▁through	-472
ap	-473
▁lady	-474
▁most	-475
ave	-476
leas	-477
▁house	-478
▁far	-479
ount	-480
ced	-481
▁without	-482
▁room	-483
▁heard	-484
▁res	-485
ire	-486
ond	-487
▁things	-488
ick	-489
▁exp	-490
▁yet	-491
thing	-492
▁pe	-493
▁ye	-494
ingley	-495
▁pl	-496
ary	-497
▁those	-498
▁bingley	-499
▁knew	-500
os	-501
▁ta	-502
▁young	-503
ach	-504
roll	-505
riend	-506
▁jane	-507
▁sat	-508
▁friend	-509
▁ap	-510
llow	-511
▁here	-512
▁make	-513
ull	-514
▁ac	-515
▁som	-516
▁still	-517
ne	-518
▁des	-519
▁fields	-520
less	-521
▁while	-522
▁ent	-523
ise	-524
pt	-525
▁wat	-526
▁mat	-527
▁old	-528
ertain	-529
▁under	-530
▁once	-531
but	-532
▁fo	-533
▁pleas	-534
ible	-535
▁door	-536
▁cont	-537
lt	-538
ud	-539
▁ever	-540
▁father	-541
▁cons	-542
▁found	-543
ins	-544
▁being	-545
▁however	-546
ang	-547
▁wh	-548
▁ret	-549
▁tell	-550
▁troll	-551
▁sister	-552
ered	-553
hes	-554
lie	-555
ched	-556
▁earth	-557
▁these	-558
ia	-559
iness	-560
▁wind	-561
▁looked	-562
int	-563
ared	-564
▁wal	-565
ated	-566
▁att	-567
▁quite	-568
▁mag	-569
▁head	-570
ject	-571
that	-572
▁morn	-573
ention	-574
▁bl	-575
▁call	-576
▁many	-577
im	-578
▁fl	-579
▁tal	-580
▁feel	-581
▁“‘	-582
▁men	-583
wards	-584
▁word	-585
▁morning	-586
no	-587
ways	-588
▁fam	-589
▁pla	-590
▁dear	-591
▁left	-592
▁eyes	-593
▁seemed	-594
▁himself	-595
ks	-596
▁light	-597
▁mrs	-598
aught	-599
iv	-600
ces	-601
▁har	-602
▁stre	-603
not	-604
▁dre	-605
▁acc	-606
▁add	-607
▁magic	-608
▁night	-609
▁always	-610
ged	-611
▁ans	-612
ether	-613
▁certain	-614
ame	-615
▁told	-616
▁belie	-617
▁ass	-618
▁appe	-619
ase	-620
oub	-621
▁car	-622
▁end	-623
▁pres	-624
ham	-625
▁sw	-626
oke	-627
▁coll	-628
▁evening	-629
mber	-630
▁sil	-631
▁seen	-632
ner	-633
▁wr	-634
▁chi	-635
▁cour	-636
▁give	-637
▁ly	-638
▁gone	-639
uc	-640
▁‘	-641
▁wi	-642
▁bec	-643
▁inte	-644
▁im	-645
▁find	-646
man	-647
▁mom	-648
▁side	-649
▁moment	-650
ied	-651
▁cl	-652
▁set	-653
dd	-654
▁inc	-655
▁supp	-656
▁wa	-657
▁took	-658
▁orion	-659
▁return	-660
▁’	-661
ason	-662
co	-663
well	-664
▁get	-665
▁mean	-666
ens	-667
fect	-668
what	-669
▁felt	-670
▁home	-671
▁inst	-672
▁enough	-673
ms	-674
▁new	-675
▁hope	-676
ounds	-677
▁right	-678
▁face	-679
▁few	-680
▁sure	-681
▁matter	-682
ci	-683
▁adv	-684
▁gu	-685
ery	-686
▁letter	-687
▁mother	-688
▁er	-689
▁inde	-690
ething	-691
dy	-692
unt	-693
▁char	-694
▁turned	-695
oh	-696
ren	-697
▁col	-698
▁chan	-699
▁king	-700
ign	-701
ined	-702
▁something	-703
ory	-704
▁cle	-705
▁pers	-706
▁wood	-707
ickham	-708
▁three	-709
▁hard	-710
▁look	-711
▁take	-712
▁follow	-713
dia	-714
shi	-715
▁pi	-716
▁bro	-717
▁nor	-718
▁done	-719
▁poss	-720
▁collins	-721
op	-722
for	-723
▁pa	-724
▁wom	-725
▁years	-726
▁family	-727
▁hear	-728
▁till	-729
▁round	-730
▁daught	-731
▁gi	-732
▁put	-733
▁cried	-734
▁having	-735
▁wickham	-736
▁wo	-737
ither	-738
ult	-739
ions	-740
▁gre	-741
▁mind	-742
az	-743
ff	-744
urp	-745
dden	-746
▁asked	-747
▁myself	-748
row	-749
▁eng	-750
▁sec	-751
▁thing	-752
ract	-753
▁occ	-754
▁gard	-755
ten	-756
lock	-757
▁ser	-758
▁kind	-759
▁began	-760
bo	-761
per	-762
▁unc	-763
▁gent	-764
▁place	-765
lic	-766
haps	-767
▁read	-768
▁lydia	-769
▁better	-770
▁cannot	-771
xt	-772
rest	-773
▁quest	-774
▁passed	-775
▁against	-776
▁wonder	-777
bour	-778
ru	-779
other	-780
▁near	-781
▁app	-782
▁min	-783
▁dist	-784
▁rest	-785
▁anything	-786
▁sub	-787
▁same	-788
les	-789
▁ev	-790
nded	-791
ained	-792
▁comm	-793
▁less	-794
▁wish	-795
▁among	-796
▁remar	-797
lied	-798
▁bus	-799
▁love	-800
,"	-801
mer	-802
ross	-803
ween	-804
▁erl	-805
▁indeed	-806
▁sudden	-807
▁tra	-808
ished	-809
▁half	-810
av	-811
▁doub	-812
▁want	-813
▁reason	-814
▁between	-815
▁vis	-816
▁case	-817
▁window	-818
air	-819
▁dif	-820
▁run	-821
riage	-822
ting	-823
▁air	-824
▁reg	-825
▁deep	-826
▁vo	-827
ured	-828
▁sin	-829
▁hands	-830
▁another	-831
aut	-832
▁el	-833
ently	-834
▁small	-835
ial	-836
▁ke	-837
pped	-838
▁met	-839
▁gentle	-840
ser	-841
▁si	-842
▁sir	-843
▁conf	-844
▁does	-845
gether	-846
▁rather	-847
▁ch	-848
ange	-849
ause	-850
▁dra	-851
▁perhaps	-852
my	-853
cei	-854
ook	-855
▁la	-856
▁dark	-857
ations	-858
ute	-859
▁vi	-860
▁hur	-861
▁open	-862
▁wait	-863
▁woman	-864
sh	-865
▁ins	-866
right	-867
▁high	-868
▁hour	-869
▁count	-870
▁really	-871
▁next	-872
▁whole	-873
ont	-874
▁towards	-875
▁each	-876
▁going	-877
▁spoke	-878
mo	-879
so	-880
ons	-881
sed	-882
wer	-883
ener	-884
ning	-885
▁fre	-886
▁exce	-887
▁beaut	-888
,--	-889
▁clo	-890
▁both	-891
▁visit	-892
▁child	-893
▁heart	-894
▁coming	-895
ath	-896
uri	-897
▁sl	-898
owed	-899
▁land	-900
▁point	-901
▁underst	-902
ling	-903
▁det	-904
ately	-905
▁conc	-906
▁gave	-907
▁expect	-908
▁replied	-909
to	-910
▁lar	-911
▁tre	-912
▁whom	-913
▁doubt	-914
anc	-915
▁jo	-916
aint	-917
▁believe	-918
▁interest	-919
ense	-920
▁got	-921
▁manner	-922
ular	-923
▁course	-924
ty	-925
son	-926
vers	-927
▁speak	-928
vi	-929
▁ind	-930
ering	-931
▁together	-932
▁	-933
e	-934
t	-935
a	-936
o	-937
n	-938
h	-939
i	-940
s	-941
r	-942
d	-943
l	-944
u	-945
m	-946
w	-947
c	-948
f	-949
y	-950
g	-951
,	-952
b	-953
p	-954
v	-955
k	-956
“	-957
”	-958
;	-959
-	-960
’	-961
x	-962
j	-963
_	-964
?	-965
z	-966
q	-967
!	-968
:	-969
"	-970
‘	-971
—	-972
'	-973
*	-974
(	-975
)	-976
[	-977
]	-978
£	-979
/	-980
é	-981
ê	-982
&	-983
æ	-984
à	-985
}	-986
œ	-987
^	-988
{	-989
·	-990
â	-991
1	-992
2	-993
è	-994
ù	-995
⁄	-996
