<unk>	0
<s>	0
</s>	0
▁t	-0
he	-1
▁a	-2
in	-3
on	-4
▁w	-5
▁s	-6
▁the	-7
re	-8
ha	-9
ou	-10
nd	-11
er	-12
▁o	-13
▁m	-14
▁b	-15
ed	-16
it	-17
is	-18
▁f	-19
▁C	-20
▁to	-21
▁c	-22
en	-23
tin	-24
ue	-25
=>	-26
▁=>	-27
▁of	-28
▁and	-29
ontin	-30
ontinue	-31
▁Continue	-32
ing	-33
▁h	-34
▁he	-35
or	-36
▁d	-37
ll	-38
ar	-39
as	-40
▁in	-41
▁l	-42
▁ha	-43
▁n	-44
es	-45
▁p	-46
▁I	-47
an	-48
hat	-49
▁be	-50
om	-51
at	-52
▁"	-53
le	-54
ot	-55
▁g	-56
ow	-57
ic	-58
▁y	-59
▁e	-60
▁was	-61
▁that	-62
ld	-63
ve	-64
EN	-65
END	-66
▁<	-67
ly	-68
gh	-69
ver	-70
im	-71
▁th	-72
▁you	-73
et	-74
id	-75
▁it	-76
st	-77
se	-78
ent	-79
ut	-80
▁her	-81
ay	-82
▁re	-83
▁u	-84
▁as	-85
▁wh	-86
▁his	-87
▁on	-88
ion	-89
ce	-90
ith	-91
▁for	-92
▁with	-93
▁not	-94
▁we	-95
ir	-96
ght	-97
▁had	-98
ould	-99
her	-100
ad	-101
ct	-102
▁A	-103
ro	-104
▁she	-105
▁at	-106
."	-107
▁an	-108
▁sa	-109
ri	-110
▁H	-111
▁is	-112
▁st	-113
ter	-114
al	-115
▁T	-116
▁have	-117
ch	-118
ur	-119
▁M	-120
oo	-121
▁him	-122
▁se	-123
li	-124
▁me	-125
▁my	-126
▁so	-127
▁su	-128
our	-129
▁all	-130
ab	-131
am	-132
ain	-133
ill	-134
out	-135
▁k	-136
ich	-137
ore	-138
▁S	-139
▁fr	-140
▁which	-141
▁but	-142
red	-143
ome	-144
▁E	-145
lf	-146
very	-147
ess	-148
▁B	-149
▁The	-150
pe	-151
ke	-152
▁said	-153
▁from	-154
ge	-155
▁up	-156
if	-157
▁ne	-158
and	-159
▁r	-160
ck	-161
▁were	-162
▁whe	-163
▁do	-164
,"	-165
all	-166
▁by	-167
▁sh	-168
ol	-169
▁kn	-170
▁con	-171
ard	-172
ight	-173
▁they	-174
▁de	-175
pp	-176
▁L	-177
▁W	-178
▁no	-179
▁mu	-180
one	-181
▁there	-182
▁been	-183
▁ex	-184
ss	-185
▁man	-186
▁would	-187
ong	-188
▁them	-189
▁fe	-190
th	-191
il	-192
ation	-193
▁see	-194
▁He	-195
▁And	-196
ough	-197
ra	-198
ul	-199
qu	-200
▁int	-201
▁this	-202
▁very	-203
ind	-204
han	-205
▁un	-206
▁who	-207
?"	-208
▁could	-209
ound	-210
▁Mr	-211
▁v	-212
▁your	-213
un	-214
▁their	-215
own	-216
tle	-217
▁one	-218
▁le	-219
▁ag	-220
▁what	-221
ood	-222
ant	-223
ked	-224
▁am	-225
self	-226
ous	-227
▁com	-228
▁when	-229
▁li	-230
▁out	-231
eth	-232
ice	-233
▁or	-234
ast	-235
▁al	-236
ame	-237
▁ab	-238
us	-239
▁any	-240
est	-241
ers	-242
▁are	-243
▁know	-244
ven	-245
ther	-246
▁more	-247
▁af	-248
ate	-249
ure	-250
▁go	-251
▁She	-252
▁D	-253
able	-254
ting	-255
▁lit	-256
ag	-257
ak	-258
ect	-259
▁will	-260
ather	-261
▁_	-262
ide	-263
hed	-264
▁than	-265
▁some	-266
▁little	-267
▁tw	-268
▁dis	-269
art	-270
▁Al	-271
way	-272
▁can	-273
fore	-274
rect	-275
ry	-276
ought	-277
▁upon	-278
▁ro	-279
▁j	-280
▁over	-281
urn	-282
ord	-283
▁Eli	-284
ond	-285
▁Eliz	-286
▁loo	-287
▁again	-288
ort	-289
au	-290
ved	-291
▁into	-292
abeth	-293
lo	-294
▁Elizabeth	-295
end	-296
ink	-297
la	-298
ance	-299
▁has	-300
um	-301
ie	-302
ost	-303
ell	-304
ive	-305
▁should	-306
ep	-307
▁sp	-308
ust	-309
orn	-310
wn	-311
▁then	-312
▁sha	-313
▁im	-314
reat	-315
ence	-316
▁how	-317
ime	-318
▁down	-319
▁pro	-320
▁pre	-321
▁O	-322
▁It	-323
▁such	-324
▁if	-325
▁other	-326
▁came	-327
▁before	-328
ine	-329
▁en	-330
▁po	-331
▁now	-332
orrect	-333
▁fa	-334
ake	-335
ings	-336
cy	-337
▁ad	-338
ment	-339
▁Correct	-340
ity	-341
el	-342
▁did	-343
ered	-344
▁day	-345
ite	-346
--	-347
▁us	-348
age	-349
ass	-350
▁br	-351
▁much	-352
▁qu	-353
ving	-354
ig	-355
ted	-356
hing	-357
▁must	-358
▁only	-359
▁time	-360
▁think	-361
▁too	-362
ade	-363
ried	-364
iss	-365
oll	-366
▁every	-367
▁ac	-368
ble	-369
You	-370
ars	-371
▁N	-372
ady	-373
are	-374
▁after	-375
▁like	-376
mes	-377
ally	-378
ack	-379
▁F	-380
ose	-381
▁never	-382
olmes	-383
nt	-384
!"	-385
▁went	-386
▁even	-387
▁Holmes	-388
ist	-389
other	-390
▁tr	-391
▁But	-392
ward	-393
▁P	-394
ouse	-395
▁say	-396
med	-397
ert	-398
▁long	-399
led	-400
land	-401
▁may	-402
ree	-403
ily	-404
▁off	-405
▁might	-406
▁rem	-407
▁our	-408
▁way	-409
ish	-410
ress	-411
▁about	-412
ever	-413
▁thr	-414
▁two	-415
ng	-416
os	-417
▁hand	-418
▁thought	-419
hi	-420
▁Elf	-421
▁away	-422
ps	-423
▁well	-424
▁J	-425
ere	-426
em	-427
▁saw	-428
▁though	-429
▁imp	-430
▁per	-431
ies	-432
king	-433
▁comp	-434
ap	-435
▁lo	-436
▁great	-437
▁wor	-438
▁mar	-439
▁come	-440
▁made	-441
▁Dar	-442
▁good	-443
ley	-444
▁Darcy	-445
ick	-446
▁part	-447
▁ho	-448
enn	-449
▁ar	-450
▁ob	-451
▁pr	-452
▁back	-453
▁nothing	-454
ise	-455
▁Alice	-456
ud	-457
▁sm	-458
ness	-459
▁fri	-460
▁happ	-461
pt	-462
▁shall	-463
▁att	-464
▁str	-465
▁Miss	-466
▁op	-467
The	-468
▁its	-469
ister	-470
▁own	-471
▁soon	-472
▁gr	-473
▁sc	-474
▁gl	-475
▁pl	-476
▁Elfland	-477
ary	-478
ew	-479
▁where	-480
ane	-481
▁cha	-482
▁beg	-483
ened	-484
▁room	-485
ful	-486
▁house	-487
▁sister	-488
ave	-489
ield	-490
▁turn	-491
▁G	-492
ft	-493
ious	-494
pect	-495
▁pass	-496
ach	-497
ennet	-498
▁Bennet	-499
ark	-500
▁bet	-501
▁last	-502
▁ye	-503
▁let	-504
atter	-505
▁exp	-506
light	-507
▁spe	-508
▁through	-509
ile	-510
ced	-511
▁friend	-512
ions	-513
▁door	-514
od	-515
leas	-516
▁most	-517
▁ey	-518
ves	-519
▁fir	-520
▁res	-521
▁und	-522
▁herself	-523
ingley	-524
▁Bingley	-525
fect	-526
right	-527
▁ind	-528
▁heard	-529
ount	-530
▁rep	-531
▁bl	-532
▁make	-533
we	-534
veric	-535
▁Th	-536
▁Alveric	-537
▁young	-538
▁without	-539
▁first	-540
▁R	-541
me	-542
▁co	-543
aught	-544
▁old	-545
▁ret	-546
ertain	-547
que	-548
ull	-549
▁Jane	-550
▁knew	-551
roll	-552
▁ap	-553
▁here	-554
arth	-555
▁yet	-556
▁just	-557
▁des	-558
▁They	-559
▁wr	-560
ire	-561
ched	-562
ject	-563
▁ent	-564
▁home	-565
cc	-566
▁som	-567
▁pleas	-568
▁far	-569
hen	-570
▁found	-571
▁once	-572
▁still	-573
▁K	-574
▁father	-575
ber	-576
ible	-577
▁under	-578
ared	-579
thing	-580
▁himself	-581
▁"'	-582
▁sat	-583
sw	-584
iness	-585
orning	-586
ife	-587
▁looked	-588
▁answ	-589
▁cons	-590
ia	-591
ins	-592
▁St	-593
owed	-594
▁ever	-595
▁being	-596
lie	-597
▁morning	-598
▁There	-599
▁car	-600
▁however	-601
rl	-602
hes	-603
▁pe	-604
▁fam	-605
ten	-606
▁want	-607
▁wal	-608
less	-609
▁left	-610
▁ch	-611
ang	-612
▁field	-613
ne	-614
ty	-615
▁those	-616
▁We	-617
▁'	-618
▁troll	-619
ner	-620
▁eyes	-621
▁wind	-622
ks	-623
▁quite	-624
▁told	-625
iv	-626
ces	-627
▁seen	-628
ple	-629
▁while	-630
▁call	-631
It	-632
ated	-633
▁You	-634
▁many	-635
wards	-636
▁ass	-637
ham	-638
▁years	-639
▁things	-640
▁dear	-641
▁light	-642
▁pla	-643
▁tal	-644
▁return	-645
ether	-646
mer	-647
▁certain	-648
igh	-649
▁word	-650
▁night	-651
day	-652
oy	-653
ention	-654
man	-655
lt	-656
ase	-657
▁mo	-658
▁face	-659
▁feel	-660
ign	-661
▁head	-662
▁these	-663
▁tell	-664
oke	-665
ways	-666
▁fl	-667
▁cl	-668
▁Mrs	-669
ither	-670
▁going	-671
▁add	-672
▁belie	-673
▁fields	-674
▁give	-675
iz	-676
▁har	-677
ged	-678
rion	-679
▁few	-680
▁matter	-681
▁appe	-682
▁seemed	-683
ason	-684
ery	-685
▁always	-686
▁mag	-687
▁look	-688
▁mom	-689
▁moment	-690
oub	-691
▁evening	-692
int	-693
quest	-694
▁pres	-695
▁dre	-696
▁cour	-697
▁wa	-698
▁sil	-699
▁sure	-700
▁end	-701
▁gone	-702
▁acc	-703
uc	-704
▁side	-705
▁asked	-706
.'	-707
te	-708
iff	-709
▁supp	-710
per	-711
▁vis	-712
▁wond	-713
▁set	-714
not	-715
ined	-716
ff	-717
yd	-718
▁right	-719
▁rec	-720
ished	-721
▁inst	-722
ied	-723
▁daught	-724
▁Orion	-725
▁enough	-726
▁inc	-727
▁hope	-728
▁mother	-729
▁new	-730
ained	-731
▁took	-732
▁three	-733
▁turned	-734
▁round	-735
▁app	-736
▁foll	-737
▁felt	-738
▁take	-739
▁family	-740
air	-741
▁mean	-742
▁pers	-743
▁read	-744
▁find	-745
▁bec	-746
ounds	-747
ens	-748
ething	-749
▁magic	-750
for	-751
▁get	-752
▁wom	-753
aking	-754
▁men	-755
▁visit	-756
▁sit	-757
ract	-758
▁occ	-759
▁put	-760
▁letter	-761
▁unc	-762
ory	-763
▁poss	-764
ickham	-765
lock	-766
▁wat	-767
▁gi	-768
▁Coll	-769
aut	-770
bour	-771
urp	-772
▁sw	-773
ows	-774
▁comm	-775
haps	-776
▁hard	-777
▁something	-778
reet	-779
▁does	-780
▁gent	-781
▁Collins	-782
ause	-783
▁In	-784
▁done	-785
▁cr	-786
▁hear	-787
xt	-788
iet	-789
les	-790
▁reason	-791
eed	-792
▁myself	-793
▁began	-794
▁Wickham	-795
arly	-796
And	-797
▁adv	-798
▁bus	-799
▁wood	-800
▁cle	-801
▁conf	-802
▁cried	-803
▁cannot	-804
Yes	-805
▁ser	-806
▁mind	-807
den	-808
shi	-809
Oh	-810
▁sec	-811
▁better	-812
cei	-813
ydia	-814
arn	-815
▁Lydia	-816
▁Lady	-817
▁quest	-818
▁thing	-819
ody	-820
ised	-821
▁passed	-822
▁less	-823
▁min	-824
▁cont	-825
▁hands	-826
ret	-827
oth	-828
▁place	-829
▁having	-830
▁Then	-831
▁small	-832
▁gentle	-833
unt	-834
icul	-835
▁case	-836
▁happy	-837
▁anything	-838
▁ev	-839
▁wish	-840
av	-841
riage	-842
ince	-843
▁nor	-844
▁As	-845
▁pa	-846
pped	-847
▁same	-848
▁When	-849
ms	-850
ont	-851
▁sub	-852
lic	-853
ween	-854
ial	-855
▁against	-856
▁wait	-857
▁woman	-858
▁Erl	-859
gether	-860
ations	-861
az	-862
▁This	-863
▁diff	-864
▁disc	-865
imes	-866
▁kind	-867
lied	-868
▁dra	-869
▁gre	-870
But	-871
ently	-872
▁half	-873
room	-874
ering	-875
▁exce	-876
▁till	-877
▁towards	-878
▁For	-879
▁tra	-880
▁spoke	-881
▁love	-882
▁open	-883
▁really	-884
ured	-885
▁sl	-886
owing	-887
▁reg	-888
▁beaut	-889
▁rather	-890
▁doub	-891
▁among	-892
▁My	-893
▁King	-894
▁dark	-895
▁el	-896
▁next	-897
ute	-898
▁ke	-899
▁hour	-900
ser	-901
▁His	-902
▁ins	-903
▁lady	-904
▁brought	-905
ange	-906
▁each	-907
▁between	-908
▁daughter	-909
,--	-910
▁la	-911
ondon	-912
▁London	-913
▁course	-914
ons	-915
▁count	-916
▁inv	-917
▁chan	-918
▁business	-919
ross	-920
▁whole	-921
▁another	-922
▁underst	-923
▁air	-924
▁det	-925
▁lar	-926
▁di	-927
▁met	-928
fort	-929
that	-930
ool	-931
▁gave	-932
▁perhaps	-933
▁indeed	-934
▁answer	-935
▁together	-936
ately	-937
▁since	-938
▁whom	-939
ense	-940
▁run	-941
▁affect	-942
▁believe	-943
▁conc	-944
▁deep	-945
orr	-946
▁lad	-947
body	-948
▁rest	-949
dden	-950
▁lau	-951
ath	-952
ove	-953
▁wonder	-954
▁eng	-955
aint	-956
▁clo	-957
▁looking	-958
▁heart	-959
▁beh	-960
ceived	-961
▁fo	-962
▁manner	-963
No	-964
the	-965
▁often	-966
uck	-967
▁sing	-968
▁leave	-969
▁Earth	-970
▁least	-971
▁speak	-972
▁sudden	-973
anc	-974
ank	-975
ook	-976
▁replied	-977
Well	-978
▁work	-979
▁front	-980
▁stood	-981
▁doubt	-982
vers	-983
▁vo	-984
▁care	-985
▁world	-986
act	-987
▁use	-988
▁behind	-989
gg	-990
▁yes	-991
▁both	-992
▁compan	-993
▁intere	-994
uri	-995
ably	-996
ressed	-997
irl	-998
ener	-999
ru	-1000
▁em	-1001
ully	-1002
▁hur	-1003
▁ref	-1004
▁coming	-1005
▁days	-1006
▁life	-1007
ail	-1008
nce	-1009
▁got	-1010
▁tre	-1011
ition	-1012
▁ext	-1013
ower	-1014
▁Long	-1015
▁wife	-1016
▁bla	-1017
▁pap	-1018
▁unt	-1019
▁girl	-1020
▁obser	-1021
▁If	-1022
▁high	-1023
▁surp	-1024
▁called	-1025
▁understand	-1026
ats	-1027
ird	-1028
▁hel	-1029
▁lay	-1030
▁dist	-1031
▁gu	-1032
ling	-1033
▁chi	-1034
▁name	-1035
▁step	-1036
▁Cather	-1037
▁Catherine	-1038
▁near	-1039
▁subject	-1040
What	-1041
ual	-1042
ents	-1043
▁expect	-1044
ac	-1045
ph	-1046
aris	-1047
▁stay	-1048
▁Cha	-1049
▁exc	-1050
res	-1051
most	-1052
▁nat	-1053
▁help	-1054
▁land	-1055
▁bre	-1056
,'	-1057
so	-1058
ning	-1059
ucas	-1060
▁hounds	-1061
ock	-1062
▁child	-1063
▁ide	-1064
▁surpr	-1065
og	-1066
▁che	-1067
ended	-1068
▁point	-1069
▁list	-1070
▁consid	-1071
▁married	-1072
ix	-1073
ures	-1074
▁abs	-1075
▁dec	-1076
but	-1077
▁acqu	-1078
ired	-1079
ople	-1080
▁certainly	-1081
ember	-1082
▁strange	-1083
aken	-1084
▁direct	-1085
▁sle	-1086
▁sum	-1087
▁bo	-1088
▁four	-1089
▁either	-1090
▁black	-1091
▁walked	-1092
▁fore	-1093
▁trolls	-1094
irc	-1095
▁te	-1096
▁expl	-1097
▁large	-1098
▁wit	-1099
oud	-1100
▁whether	-1101
du	-1102
▁short	-1103
▁hardly	-1104
form	-1105
▁words	-1106
▁fort	-1107
ton	-1108
▁able	-1109
▁late	-1110
▁people	-1111
bourn	-1112
▁until	-1113
▁present	-1114
▁Longbourn	-1115
und	-1116
▁window	-1117
yond	-1118
▁pol	-1119
▁dog	-1120
▁also	-1121
▁known	-1122
▁stand	-1123
▁whose	-1124
ped	-1125
ility	-1126
bit	-1127
▁forg	-1128
▁plan	-1129
▁minut	-1130
▁gra	-1131
▁instant	-1132
▁question	-1133
▁aw	-1134
▁dro	-1135
▁eas	-1136
▁writ	-1137
▁object	-1138
isf	-1139
icorn	-1140
▁circ	-1141
▁table	-1142
▁At	-1143
▁possible	-1144
ater	-1145
▁adm	-1146
▁ill	-1147
aring	-1148
▁pleasure	-1149
arm	-1150
pos	-1151
▁hus	-1152
▁agree	-1153
▁given	-1154
▁charact	-1155
ip	-1156
▁So	-1157
▁sir	-1158
▁V	-1159
▁person	-1160
▁par	-1161
▁answered	-1162
▁gentleman	-1163
fully	-1164
▁curi	-1165
▁inter	-1166
▁unicorn	-1167
▁play	-1168
▁gener	-1169
▁others	-1170
aged	-1171
▁wee	-1172
ued	-1173
▁Her	-1174
▁fire	-1175
▁Paris	-1176
▁forward	-1177
▁minutes	-1178
ild	-1179
ken	-1180
onel	-1181
▁else	-1182
sel	-1183
▁followed	-1184
▁returned	-1185
▁hon	-1186
▁beyond	-1187
ier	-1188
▁opin	-1189
ford	-1190
▁uncle	-1191
airs	-1192
▁col	-1193
▁twi	-1194
▁fell	-1195
▁satisf	-1196
▁strong	-1197
▁affection	-1198
▁town	-1199
▁twilight	-1200
That	-1201
▁act	-1202
▁din	-1203
ience	-1204
tered	-1205
▁alone	-1206
arr	-1207
▁hum	-1208
▁bed	-1209
▁cold	-1210
riv	-1211
erm	-1212
▁prom	-1213
uth	-1214
uring	-1215
▁voice	-1216
▁ladies	-1217
of	-1218
Your	-1219
▁sent	-1220
▁yourself	-1221
▁attention	-1222
▁contin	-1223
▁hor	-1224
▁character	-1225
terday	-1226
▁idea	-1227
▁consider	-1228
ib	-1229
▁occas	-1230
ict	-1231
▁don	-1232
herlock	-1233
▁remark	-1234
ains	-1235
▁why	-1236
▁Street	-1237
▁because	-1238
▁ran	-1239
▁How	-1240
▁led	-1241
▁added	-1242
▁appear	-1243
My	-1244
▁On	-1245
▁arm	-1246
▁son	-1247
▁country	-1248
He	-1249
▁best	-1250
▁laugh	-1251
▁sound	-1252
▁Sherlock	-1253
ern	-1254
▁ask	-1255
hy	-1256
ult	-1257
▁ang	-1258
aster	-1259
▁particul	-1260
▁therefore	-1261
▁respect	-1262
ub	-1263
▁almost	-1264
▁suddenly	-1265
ited	-1266
rying	-1267
▁opinion	-1268
▁yesterday	-1269
?'	-1270
▁silence	-1271
▁inqu	-1272
▁aunt	-1273
ude	-1274
▁bro	-1275
▁rel	-1276
▁sun	-1277
▁interest	-1278
ster	-1279
▁fur	-1280
▁entered	-1281
ec	-1282
zy	-1283
erent	-1284
▁received	-1285
amp	-1286
inc	-1287
ney	-1288
old	-1289
ying	-1290
urs	-1291
▁lost	-1292
▁Charl	-1293
▁quiet	-1294
use	-1295
▁hun	-1296
▁inf	-1297
▁draw	-1298
▁power	-1299
▁seeing	-1300
▁sitting	-1301
▁Gard	-1302
▁With	-1303
▁opened	-1304
▁feelings	-1305
ey	-1306
▁enc	-1307
▁convers	-1308
ER	-1309
▁brother	-1310
ating	-1311
medi	-1312
otte	-1313
ances	-1314
oured	-1315
▁within	-1316
▁marriage	-1317
▁Charlotte	-1318
▁meet	-1319
etimes	-1320
▁earth	-1321
▁occasion	-1322
▁ed	-1323
▁need	-1324
▁prev	-1325
▁everything	-1326
ren	-1327
▁Fr	-1328
izzy	-1329
▁perfect	-1330
▁lea	-1331
ship	-1332
selves	-1333
▁dri	-1334
ually	-1335
ushed	-1336
▁poor	-1337
▁bring	-1338
▁clear	-1339
ctor	-1340
here	-1341
▁anx	-1342
▁fin	-1343
▁jo	-1344
night	-1345
▁Gardin	-1346
▁appeared	-1347
▁est	-1348
▁inform	-1349
band	-1350
▁mon	-1351
▁heav	-1352
▁mist	-1353
▁immedi	-1354
▁husband	-1355
ancy	-1356
ached	-1357
shire	-1358
▁sisters	-1359
▁determ	-1360
▁express	-1361
▁mention	-1362
its	-1363
you	-1364
aded	-1365
▁none	-1366
his	-1367
ided	-1368
▁ten	-1369
▁full	-1370
▁Lucas	-1371
ee	-1372
oss	-1373
side	-1374
▁ord	-1375
▁horn	-1376
▁honour	-1377
iety	-1378
ingly	-1379
▁bord	-1380
▁keep	-1381
▁sk	-1382
▁aff	-1383
▁conv	-1384
▁glad	-1385
▁along	-1386
▁What	-1387
▁exam	-1388
▁prob	-1389
▁1	-1390
▁opp	-1391
▁red	-1392
▁longer	-1393
▁To	-1394
ready	-1395
▁across	-1396
▁X	-1397
▁Do	-1398
▁feet	-1399
▁held	-1400
▁chair	-1401
empt	-1402
iced	-1403
oney	-1404
used	-1405
▁mis	-1406
▁above	-1407
▁Z	-1408
ian	-1409
▁used	-1410
▁means	-1411
▁conversation	-1412
iful	-1413
▁That	-1414
▁slow	-1415
▁civ	-1416
erence	-1417
▁sometimes	-1418
vour	-1419
▁song	-1420
▁Q	-1421
▁wis	-1422
▁fact	-1423
eness	-1424
▁continued	-1425
ager	-1426
▁mad	-1427
▁already	-1428
mb	-1429
▁gard	-1430
There	-1431
ash	-1432
une	-1433
illi	-1434
olonel	-1435
tled	-1436
▁talk	-1437
iously	-1438
ient	-1439
ssed	-1440
▁gri	-1441
orrow	-1442
▁line	-1443
▁sort	-1444
▁delight	-1445
▁fut	-1446
atson	-1447
field	-1448
▁sign	-1449
▁sugg	-1450
▁future	-1451
TER	-1452
▁Watson	-1453
▁suggest	-1454
▁ast	-1455
▁equ	-1456
▁comfort	-1457
HA	-1458
iece	-1459
▁year	-1460
illiam	-1461
▁Gardiner	-1462
ining	-1463
▁early	-1464
▁five	-1465
▁spir	-1466
to	-1467
iment	-1468
ott	-1469
▁CHA	-1470
anger	-1471
▁fear	-1472
▁import	-1473
no	-1474
▁real	-1475
▁Lizzy	-1476
▁suppose	-1477
We	-1478
▁ste	-1479
arked	-1480
▁imag	-1481
▁Colonel	-1482
iew	-1483
pend	-1484
▁ago	-1485
▁magical	-1486
▁carriage	-1487
by	-1488
imp	-1489
ident	-1490
▁money	-1491
▁sword	-1492
raid	-1493
▁Now	-1494
▁start	-1495
_,	-1496
olk	-1497
▁bu	-1498
▁party	-1499
▁Nether	-1500
▁afraid	-1501
▁Netherfield	-1502
up	-1503
PTER	-1504
ments	-1505
▁CHAPTER	-1506
ene	-1507
▁Mary	-1508
▁bird	-1509
▁live	-1510
▁pain	-1511
▁acquaint	-1512
ept	-1513
▁ra	-1514
▁mere	-1515
▁pat	-1516
▁white	-1517
▁during	-1518
sp	-1519
▁(	-1520
▁es	-1521
▁Que	-1522
▁flo	-1523
▁talking	-1524
rel	-1525
▁beauty	-1526
▁favour	-1527
▁silent	-1528
▁cor	-1529
▁different	-1530
▁happiness	-1531
cess	-1532
ouses	-1533
▁walk	-1534
▁begin	-1535
▁neigh	-1536
▁sleep	-1537
▁bright	-1538
▁dinner	-1539
▁outside	-1540
▁neighbour	-1541
▁learn	-1542
op	-1543
▁boy	-1544
▁tall	-1545
anced	-1546
▁circum	-1547
▁standing	-1548
men	-1549
▁pi	-1550
▁compl	-1551
bed	-1552
▁Queen	-1553
▁offic	-1554
▁second	-1555
▁remarked	-1556
ote	-1557
ical	-1558
▁break	-1559
▁account	-1560
be	-1561
vell	-1562
▁hat	-1563
▁story	-1564
▁garden	-1565
▁saying	-1566
▁immediately	-1567
▁acquaintance	-1568
itude	-1569
▁pale	-1570
▁aston	-1571
▁moved	-1572
▁truth	-1573
▁border	-1574
▁Niv	-1575
ooks	-1576
▁low	-1577
▁ter	-1578
▁vill	-1579
▁creat	-1580
▁ought	-1581
ossible	-1582
laim	-1583
▁wand	-1584
Then	-1585
atch	-1586
▁sight	-1587
-"	-1588
now	-1589
azel	-1590
irazel	-1591
▁dress	-1592
▁natur	-1593
▁impossible	-1594
If	-1595
nect	-1596
ustr	-1597
ffect	-1598
▁foot	-1599
▁eager	-1600
▁advant	-1601
▁glo	-1602
▁tou	-1603
▁fall	-1604
▁hair	-1605
▁whis	-1606
▁resol	-1607
▁folk	-1608
▁smil	-1609
▁true	-1610
▁An	-1611
orner	-1612
▁drew	-1613
▁rose	-1614
▁serv	-1615
itation	-1616
▁houses	-1617
▁slight	-1618
▁concern	-1619
mon	-1620
ors	-1621
▁blue	-1622
▁taken	-1623
▁likely	-1624
omp	-1625
ding	-1626
▁char	-1627
▁form	-1628
▁appro	-1629
▁close	-1630
▁master	-1631
▁feeling	-1632
rew	-1633
like	-1634
▁note	-1635
▁inquir	-1636
▁living	-1637
▁thoughts	-1638
▁eye	-1639
ising	-1640
▁deal	-1641
▁slowly	-1642
▁circumst	-1643
▁Mery	-1644
▁gold	-1645
▁ways	-1646
▁Lirazel	-1647
▁Meryton	-1648
▁windows	-1649
urst	-1650
ading	-1651
ching	-1652
ption	-1653
▁guard	-1654
▁occur	-1655
▁friends	-1656
▁settled	-1657
jo	-1658
liar	-1659
▁age	-1660
▁tri	-1661
▁past	-1662
idence	-1663
▁waiting	-1664
▁happened	-1665
▁dread	-1666
cked	-1667
▁hast	-1668
▁laid	-1669
ler	-1670
▁try	-1671
▁dream	-1672
▁seems	-1673
▁beautiful	-1674
▁ve	-1675
▁surprise	-1676
usion	-1677
▁beha	-1678
app	-1679
fter	-1680
▁cal	-1681
▁grey	-1682
▁fancy	-1683
▁tried	-1684
▁curious	-1685
▁watched	-1686
oun	-1687
▁ma	-1688
itty	-1689
▁Mar	-1690
▁spr	-1691
▁rejo	-1692
▁colour	-1693
▁perfectly	-1694
fe	-1695
▁Wh	-1696
ancing	-1697
▁earthly	-1698
orm	-1699
▁	-1700
e	-1701
t	-1702
o	-1703
n	-1704
a	-1705
i	-1706
h	-1707
s	-1708
r	-1709
d	-1710
l	-1711
u	-1712
m	-1713
w	-1714
c	-1715
f	-1716
y	-1717
g	-1718
,	-1719
p	-1720
b	-1721
.	-1722
>	-1723
v	-1724
"	-1725
C	-1726
:	-1727
k	-1728
=	-1729
I	-1730
E	-1731
D	-1732
N	-1733
<	-1734
'	-1735
A	-1736
-	-1737
T	-1738
H	-1739
;	-1740
M	-1741
S	-1742
W	-1743
x	-1744
B	-1745
_	-1746
?	-1747
L	-1748
z	-1749
q	-1750
j	-1751
!	-1752
O	-1753
Y	-1754
P	-1755
F	-1756
R	-1757
J	-1758
G	-1759
K	-1760
V	-1761
X	-1762
0	-1763
1	-1764
Q	-1765
U	-1766
2	-1767
Z	-1768
3	-1769
)	-1770
(	-1771
8	-1772
4	-1773
*	-1774
]	-1775
[	-1776
5	-1777
6	-1778
£	-1779
7	-1780
9	-1781
é	-1782
/	-1783
ê	-1784
&	-1785
æ	-1786
à	-1787
·	-1788
â	-1789
^	-1790
{	-1791
}	-1792
œ	-1793
è	-1794
ù	-1795
⁄	-1796
